<blank>	0
<unk>	0
<eos>	0
<0x00>	0
<0x01>	0
<0x02>	0
<0x03>	0
<0x04>	0
<0x05>	0
<0x06>	0
<0x07>	0
<0x08>	0
<0x09>	0
<0x0A>	0
<0x0B>	0
<0x0C>	0
<0x0D>	0
<0x0E>	0
<0x0F>	0
<0x10>	0
<0x11>	0
<0x12>	0
<0x13>	0
<0x14>	0
<0x15>	0
<0x16>	0
<0x17>	0
<0x18>	0
<0x19>	0
<0x1A>	0
<0x1B>	0
<0x1C>	0
<0x1D>	0
<0x1E>	0
<0x1F>	0
<0x20>	0
<0x21>	0
<0x22>	0
<0x23>	0
<0x24>	0
<0x25>	0
<0x26>	0
<0x27>	0
<0x28>	0
<0x29>	0
<0x2A>	0
<0x2B>	0
<0x2C>	0
<0x2D>	0
<0x2E>	0
<0x2F>	0
<0x30>	0
<0x31>	0
<0x32>	0
<0x33>	0
<0x34>	0
<0x35>	0
<0x36>	0
<0x37>	0
<0x38>	0
<0x39>	0
<0x3A>	0
<0x3B>	0
<0x3C>	0
<0x3D>	0
<0x3E>	0
<0x3F>	0
<0x40>	0
<0x41>	0
<0x42>	0
<0x43>	0
<0x44>	0
<0x45>	0
<0x46>	0
<0x47>	0
<0x48>	0
<0x49>	0
<0x4A>	0
<0x4B>	0
<0x4C>	0
<0x4D>	0
<0x4E>	0
<0x4F>	0
<0x50>	0
<0x51>	0
<0x52>	0
<0x53>	0
<0x54>	0
<0x55>	0
<0x56>	0
<0x57>	0
<0x58>	0
<0x59>	0
<0x5A>	0
<0x5B>	0
<0x5C>	0
<0x5D>	0
<0x5E>	0
<0x5F>	0
<0x60>	0
<0x61>	0
<0x62>	0
<0x63>	0
<0x64>	0
<0x65>	0
<0x66>	0
<0x67>	0
<0x68>	0
<0x69>	0
<0x6A>	0
<0x6B>	0
<0x6C>	0
<0x6D>	0
<0x6E>	0
<0x6F>	0
<0x70>	0
<0x71>	0
<0x72>	0
<0x73>	0
<0x74>	0
<0x75>	0
<0x76>	0
<0x77>	0
<0x78>	0
<0x79>	0
<0x7A>	0
<0x7B>	0
<0x7C>	0
<0x7D>	0
<0x7E>	0
<0x7F>	0
<0x80>	0
<0x81>	0
<0x82>	0
<0x83>	0
<0x84>	0
<0x85>	0
<0x86>	0
<0x87>	0
<0x88>	0
<0x89>	0
<0x8A>	0
<0x8B>	0
<0x8C>	0
<0x8D>	0
<0x8E>	0
<0x8F>	0
<0x90>	0
<0x91>	0
<0x92>	0
<0x93>	0
<0x94>	0
<0x95>	0
<0x96>	0
<0x97>	0
<0x98>	0
<0x99>	0
<0x9A>	0
<0x9B>	0
<0x9C>	0
<0x9D>	0
<0x9E>	0
<0x9F>	0
<0xA0>	0
<0xA1>	0
<0xA2>	0
<0xA3>	0
<0xA4>	0
<0xA5>	0
<0xA6>	0
<0xA7>	0
<0xA8>	0
<0xA9>	0
<0xAA>	0
<0xAB>	0
<0xAC>	0
<0xAD>	0
<0xAE>	0
<0xAF>	0
<0xB0>	0
<0xB1>	0
<0xB2>	0
<0xB3>	0
<0xB4>	0
<0xB5>	0
<0xB6>	0
<0xB7>	0
<0xB8>	0
<0xB9>	0
<0xBA>	0
<0xBB>	0
<0xBC>	0
<0xBD>	0
<0xBE>	0
<0xBF>	0
<0xC0>	0
<0xC1>	0
<0xC2>	0
<0xC3>	0
<0xC4>	0
<0xC5>	0
<0xC6>	0
<0xC7>	0
<0xC8>	0
<0xC9>	0
<0xCA>	0
<0xCB>	0
<0xCC>	0
<0xCD>	0
<0xCE>	0
<0xCF>	0
<0xD0>	0
<0xD1>	0
<0xD2>	0
<0xD3>	0
<0xD4>	0
<0xD5>	0
<0xD6>	0
<0xD7>	0
<0xD8>	0
<0xD9>	0
<0xDA>	0
<0xDB>	0
<0xDC>	0
<0xDD>	0
<0xDE>	0
<0xDF>	0
<0xE0>	0
<0xE1>	0
<0xE2>	0
<0xE3>	0
<0xE4>	0
<0xE5>	0
<0xE6>	0
<0xE7>	0
<0xE8>	0
<0xE9>	0
<0xEA>	0
<0xEB>	0
<0xEC>	0
<0xED>	0
<0xEE>	0
<0xEF>	0
<0xF0>	0
<0xF1>	0
<0xF2>	0
<0xF3>	0
<0xF4>	0
<0xF5>	0
<0xF6>	0
<0xF7>	0
<0xF8>	0
<0xF9>	0
<0xFA>	0
<0xFB>	0
<0xFC>	0
<0xFD>	0
<0xFE>	0
<0xFF>	0
▁	-3.02586
e	-3.5849
s	-3.7442
d	-3.89539
y	-4.0076
r	-4.28833
t	-4.29408
o	-4.48444
er	-4.54657
▁the	-4.73813
▁w	-4.89997
▁a	-4.91129
l	-4.93101
m	-4.96173
a	-4.99348
▁b	-4.99724
▁c	-5.02066
ve	-5.06881
▁s	-5.093
▁t	-5.1026
f	-5.1537
▁th	-5.18196
▁e	-5.18449
i	-5.21978
ke	-5.2205
re	-5.22245
▁be	-5.24605
ar	-5.29268
▁f	-5.30237
w	-5.30323
▁no	-5.31262
ing	-5.31414
en	-5.33266
x	-5.34118
▁ha	-5.39573
▁o	-5.40868
▁ma	-5.4093
▁h	-5.41359
il	-5.42
▁p	-5.46354
p	-5.49299
▁m	-5.49414
n	-5.50109
-	-5.54499
le	-5.57258
▁go	-5.58903
ch	-5.60118
mber	-5.61854
es	-5.64264
▁li	-5.64631
ul	-5.65433
de	-5.65873
ow	-5.66592
▁in	-5.6698
ir	-5.68625
and	-5.71245
ft	-5.71813
ine	-5.71913
▁del	-5.72178
st	-5.73988
▁co	-5.74012
is	-5.75034
ed	-5.75212
ay	-5.76918
ha	-5.78633
▁wh	-5.80147
ra	-5.80607
▁cha	-5.80721
▁down	-5.84273
lie	-5.84358
at	-5.8453
▁up	-5.84767
▁you	-5.86048
▁si	-5.86894
h	-5.87597
▁lo	-5.87883
▁it	-5.88652
▁pa	-5.905
▁an	-5.90561
▁ju	-5.90858
▁se	-5.90934
use	-5.92236
g	-5.93292
▁whi	-5.9331
wo	-5.95474
u	-5.96121
me	-5.96824
▁re	-5.98981
id	-5.99467
on	-6.00279
▁fo	-6.00738
out	-6.01312
▁par	-6.02206
cho	-6.02672
ok	-6.03013
▁as	-6.03372
ma	-6.0367
▁i	-6.04591
▁z	-6.04597
▁but	-6.07625
ng	-6.08616
ent	-6.0892
c	-6.09435
▁fi	-6.09851
able	-6.10791
ven	-6.11286
▁d	-6.116
ge	-6.12027
sion	-6.1212
ach	-6.14488
▁ho	-6.14706
of	-6.15528
other	-6.15744
▁ad	-6.15781
b	-6.16707
sca	-6.17237
or	-6.18544
wa	-6.19776
ia	-6.20498
▁br	-6.20781
ta	-6.21135
oul	-6.21534
▁ab	-6.21974
ur	-6.2307
ure	-6.23464
▁we	-6.23669
ight	-6.23723
▁n	-6.23752
▁r	-6.25092
▁enter	-6.25204
▁right	-6.25273
▁bath	-6.25312
▁on	-6.25441
graph	-6.25817
▁with	-6.25821
▁ya	-6.26095
tion	-6.26167
▁so	-6.27217
ut	-6.27218
nke	-6.2735
li	-6.27869
▁to	-6.27926
pe	-6.29001
▁le	-6.29126
▁do	-6.294
▁all	-6.29447
ray	-6.30001
te	-6.30434
▁for	-6.30498
▁al	-6.30654
▁out	-6.309
tel	-6.31528
vic	-6.32339
ree	-6.32377
▁qu	-6.32673
▁comm	-6.32872
▁fir	-6.33423
▁was	-6.33671
▁he	-6.3389
▁can	-6.34544
▁nu	-6.34973
pa	-6.35128
omeo	-6.35734
get	-6.35986
▁cop	-6.36535
rit	-6.36637
if	-6.37101
▁or	-6.3769
▁sa	-6.38376
▁g	-6.40715
▁com	-6.40789
▁bo	-6.41443
man	-6.41751
▁mor	-6.41802
▁sh	-6.41928
uni	-6.42289
ack	-6.4264
▁now	-6.42656
▁int	-6.4287
im	-6.43511
um	-6.45386
▁ch	-6.46337
k	-6.46766
her	-6.47682
ple	-6.47931
shi	-6.48122
▁di	-6.48831
ind	-6.49448
ache	-6.49683
ous	-6.49822
se	-6.50485
trot	-6.50616
an	-6.50976
▁alt	-6.51068
all	-6.51322
▁mo	-6.52173
▁battle	-6.52602
ate	-6.53024
enc	-6.53432
▁watch	-6.5369
▁con	-6.53699
lu	-6.54231
ful	-6.54234
oon	-6.54384
bri	-6.54438
▁mi	-6.54742
ment	-6.54795
he	-6.54873
his	-6.56215
ic	-6.56653
ti	-6.56721
▁ye	-6.56819
▁jo	-6.57189
ush	-6.5727
she	-6.57572
▁wa	-6.58373
ty	-6.58534
ebe	-6.5987
for	-6.6038
▁bu	-6.606
vou	-6.61249
ab	-6.61615
▁fro	-6.61746
sh	-6.61783
car	-6.63944
al	-6.64134
than	-6.64376
ound	-6.64648
lo	-6.66151
oly	-6.67013
one	-6.67826
▁pro	-6.67979
th	-6.6855
▁at	-6.69348
ooth	-6.69709
zu	-6.70277
ers	-6.70362
ter	-6.70556
▁un	-6.71055
ace	-6.71904
▁na	-6.72416
uge	-6.72506
ger	-6.73147
▁fin	-6.73466
ne	-6.7349
▁j	-6.73491
cul	-6.74644
ill	-6.75414
ho	-6.76106
▁ne	-6.77285
sk	-6.77338
ome	-6.78897
ring	-6.80423
▁wat	-6.8129
ci	-6.81823
sp	-6.83406
it	-6.83421
ang	-6.8548
how	-6.86448
vo	-6.8774
▁pe	-6.87772
ble	-6.87938
ls	-6.88004
uri	-6.88066
our	-6.88098
tu	-6.89286
ce	-6.89364
tro	-6.89464
▁cu	-6.896
ili	-6.90422
ja	-6.92123
yho	-6.92316
▁cho	-6.92399
fe	-6.93161
od	-6.93196
▁southeast	-6.93458
pothe	-6.93593
▁massa	-6.9367
▁blue	-6.93677
mp	-6.93847
▁abso	-6.93965
ngal	-6.94034
▁epi	-6.94167
▁k	-6.94171
▁sup	-6.94215
uff	-6.94566
▁penn	-6.94606
▁appre	-6.94655
ki	-6.94874
worth	-6.95013
▁gre	-6.95343
rgy	-6.95353
ield	-6.95454
▁aut	-6.95839
plo	-6.95918
bod	-6.96447
▁ball	-6.96494
path	-6.96585
ll	-6.9665
ood	-6.96694
aste	-6.97745
isso	-6.97968
▁bul	-6.98305
own	-6.98509
whi	-6.98511
hoo	-6.98783
sual	-6.9936
▁alo	-6.99452
nes	-6.99764
ham	-6.99767
rs	-6.9977
tural	-6.99805
had	-7.00093
et	-7.0022
age	-7.00222
rol	-7.00686
ith	-7.01068
▁sw	-7.01249
ndow	-7.01277
though	-7.0181
to	-7.02249
▁disp	-7.0246
▁pl	-7.02646
▁em	-7.03255
▁ex	-7.03921
evi	-7.05166
wor	-7.05257
▁bl	-7.06083
▁car	-7.06155
sses	-7.06301
the	-7.06514
iz	-7.07461
sa	-7.07809
▁mou	-7.08064
ks	-7.08421
ey	-7.08428
dru	-7.08582
imm	-7.08624
per	-7.09132
▁hi	-7.09426
uga	-7.09718
ere	-7.10734
▁ca	-7.11387
▁l	-7.11515
equ	-7.11642
ox	-7.12186
▁la	-7.12703
eph	-7.13866
shar	-7.15817
ogi	-7.16526
▁conv	-7.16589
oist	-7.17233
▁ir	-7.19108
ph	-7.19322
▁any	-7.1955
▁fa	-7.19635
sy	-7.20599
nd	-7.20666
ati	-7.20669
aw	-7.21577
any	-7.21616
▁bac	-7.21855
gi	-7.21965
gant	-7.21993
va	-7.22401
nali	-7.23134
erwo	-7.2314
▁gig	-7.23393
hat	-7.24266
yw	-7.24562
▁thi	-7.2494
low	-7.25458
▁du	-7.26452
ion	-7.26853
▁wi	-7.27387
hen	-7.27713
brow	-7.28628
▁bee	-7.29289
qui	-7.3017
oh	-7.30628
ise	-7.31192
ob	-7.31415
ant	-7.31888
by	-7.32608
▁ta	-7.33771
▁bet	-7.34317
ess	-7.34879
iet	-7.35679
ip	-7.36381
ck	-7.36709
▁both	-7.37202
rom	-7.37232
que	-7.37355
ry	-7.37405
▁ro	-7.3827
where	-7.38277
▁gi	-7.38298
z	-7.38484
ust	-7.38615
acti	-7.39794
und	-7.40226
abb	-7.40449
reso	-7.40468
▁adv	-7.40622
io	-7.4211
ro	-7.42497
▁de	-7.42754
eath	-7.42903
ming	-7.4359
▁sc	-7.44382
oons	-7.44439
▁bro	-7.4491
oqu	-7.45105
usta	-7.46087
yth	-7.46811
▁cl	-7.46994
▁ave	-7.47146
ula	-7.47648
ele	-7.48105
▁qua	-7.49287
ov	-7.51369
huse	-7.5137
tter	-7.51629
gen	-7.52518
som	-7.53306
vers	-7.53827
▁ba	-7.5383
boy	-7.5436
ett	-7.54485
▁exa	-7.5492
atho	-7.55081
▁tha	-7.5511
▁fr	-7.55171
ny	-7.56123
jo	-7.56606
ye	-7.56882
lle	-7.57266
nt	-7.57751
with	-7.58417
vi	-7.59257
ly	-7.5943
cal	-7.59469
av	-7.59867
▁appr	-7.59891
jac	-7.60418
▁st	-7.60924
fi	-7.61118
owl	-7.61739
nif	-7.61871
▁cow	-7.61878
ange	-7.61882
pos	-7.6198
umb	-7.62484
rang	-7.6273
ough	-7.6282
lea	-7.63239
gui	-7.6344
rot	-7.63943
cu	-7.6408
▁vo	-7.64317
ie	-7.64584
here	-7.64704
ver	-7.64827
iel	-7.64843
ual	-7.66808
ois	-7.67561
lor	-7.67641
thy	-7.681
ap	-7.68598
merc	-7.69083
int	-7.69562
rb	-7.69818
ev	-7.70023
▁dis	-7.70778
ri	-7.72513
▁dow	-7.73237
ana	-7.73953
bel	-7.74287
mas	-7.74481
gl	-7.75278
▁wo	-7.75344
la	-7.7578
tha	-7.76475
han	-7.78039
ath	-7.7871
ag	-7.78882
chi	-7.78998
ig	-7.79235
row	-7.80141
roth	-7.81041
ithe	-7.81135
eshi	-7.81289
nu	-7.8253
erv	-7.82793
ym	-7.82929
▁ent	-7.83267
ste	-7.83991
nde	-7.8404
di	-7.85938
hav	-7.85982
agr	-7.87515
lut	-7.87946
▁aw	-7.88002
lat	-7.88353
van	-7.9108
rl	-7.92399
ulg	-7.9241
br	-7.95331
eve	-7.9567
ou	-7.9568
ash	-7.95907
be	-7.95994
ps	-7.95999
eop	-7.96053
ave	-7.96308
gu	-7.9726
po	-7.98149
as	-7.98301
ien	-7.99783
lel	-7.9982
no	-8.00179
so	-8.00542
flo	-8.0097
dul	-8.01721
ot	-8.03311
pi	-8.03365
▁sho	-8.04407
ex	-8.05019
ad	-8.05364
elu	-8.06303
▁y	-8.08181
che	-8.08327
qu	-8.09021
hi	-8.0962
go	-8.09847
us	-8.11062
thou	-8.11484
sto	-8.12901
▁whe	-8.13626
mul	-8.14627
ze	-8.15366
ol	-8.19497
ove	-8.19934
ac	-8.20866
ember	-8.2197
egi	-8.21994
cia	-8.22862
tt	-8.24152
eat	-8.24745
v	-8.24826
bs	-8.26249
dow	-8.26336
▁gou	-8.26482
oli	-8.34311
bo	-8.35655
lep	-8.36059
oth	-8.3631
om	-8.37441
up	-8.3752
ther	-8.4204
hea	-8.45184
▁pr	-8.45371
shin	-8.45724
oot	-8.48157
dle	-8.48651
el	-8.50064
▁cr	-8.50865
lit	-8.51513
lv	-8.54125
em	-8.55423
ite	-8.5682
in	-8.59452
nat	-8.604
▁abl	-8.61049
ame	-8.61893
mo	-8.62002
owb	-8.62432
meo	-8.63869
ish	-8.64596
▁nat	-8.65691
ss	-8.66804
ug	-8.70262
ndi	-8.7177
os	-8.72904
oy	-8.73714
▁pen	-8.76031
ser	-8.76884
ld	-8.77955
ali	-8.78123
▁ge	-8.78399
py	-8.82772
hy	-8.8412
ult	-8.85151
▁v	-8.87646
ente	-8.89277
har	-8.8998
sta	-8.93918
si	-8.95329
rew	-8.96277
ule	-8.97004
spo	-8.9801
nc	-9.01824
cti	-9.02735
hel	-9.07015
gg	-9.07367
outh	-9.07862
wl	-9.08968
na	-9.11633
ast	-9.1751
ue	-9.17812
ef	-9.19044
blu	-9.19357
rem	-9.20235
af	-9.22073
tho	-9.23215
rk	-9.23888
ist	-9.24959
tle	-9.2533
lio	-9.26521
ee	-9.29363
bb	-9.32136
lef	-9.33059
ler	-9.33401
ten	-9.34277
hey	-9.3557
rt	-9.36441
hau	-9.36716
asu	-9.50239
hough	-9.5246
hom	-9.52735
da	-9.57212
les	-9.64303
fo	-9.69879
pen	-9.71044
ural	-9.71398
pl	-9.71843
las	-9.72839
▁u	-9.72953
fu	-9.73614
op	-9.81212
sha	-9.82156
ew	-9.85313
eo	-9.92024
est	-9.93343
ea	-9.94549
sc	-9.97108
dis	-9.97197
rm	-10.059
atur	-10.1058
rp	-10.131
hol	-10.1887
fou	-10.2104
ani	-10.2511
ni	-10.29
sl	-10.2966
uth	-10.3024
nto	-10.3302
ec	-10.3409
let	-10.3495
fa	-10.4148
thi	-10.4384
ca	-10.4397
erc	-10.464
oi	-10.4919
ya	-10.494
nal	-10.513
eme	-10.5473
ewo	-10.5528
rth	-10.5583
oin	-10.5643
wb	-10.5943
ses	-10.6169
oo	-10.6482
▁su	-10.6776
un	-10.6924
eas	-10.6955
ell	-10.6956
sho	-10.7125
eb	-10.7141
esi	-10.7253
end	-10.7314
▁en	-10.8025
ai	-10.8052
hin	-10.8103
hou	-10.8284
iss	-10.8483
du	-10.86
fl	-10.8736
hesi	-10.8807
rr	-10.9221
bi	-10.9298
rwo	-10.9412
ara	-10.9842
loo	-10.9903
rro	-11.023
lis	-11.034
ons	-11.0739
ote	-11.1085
hes	-11.1433
aus	-11.1569
cha	-11.1741
mi	-11.1825
owe	-11.1844
tte	-11.2513
too	-11.2646
ru	-11.3114
gr	-11.3168
ora	-11.3252
thes	-11.3824
ches	-11.4202
ga	-11.4541
nte	-11.4973
bl	-11.5502
sso	-11.5663
wer	-11.5922
thin	-11.6055
gy	-11.6164
tr	-11.633
erth	-11.6511
ssa	-11.6518
ff	-11.6949
wr	-11.7195
wh	-11.7437
eld	-11.7681
nge	-11.8099
ber	-11.9128
llo	-11.9483
lti	-12.041
j	-12.1079
ire	-12.1212
og	-12.1519
hir	-12.1534
rab	-12.2325
tche	-12.2727
ght	-12.2992
pp	-12.3254
eg	-12.4086
sol	-12.4184
mm	-12.4862
ib	-12.5379
hon	-12.5474
del	-12.6326
▁bat	-12.6501
down	-12.7086
tur	-12.7273
bou	-12.7494
ct	-12.7924
we	-12.8042
athe	-12.8132
co	-12.8169
ura	-12.8226
you	-12.825
othe	-12.8338
pro	-12.8501
tch	-12.8929
alt	-12.9316
erg	-12.9994
oug	-13.0095
uebe	-13.0333
par	-13.0626
ju	-13.0688
abl	-13.1007
do	-13.116
but	-13.1472
enter	-13.256
right	-13.2568
hoi	-13.2906
bath	-13.3307
wi	-13.441
comm	-13.4511
fir	-13.5716
was	-13.5758
can	-13.5931
cop	-13.6418
battle	-13.6738
com	-13.7003
ui	-13.7048
mor	-13.7237
raph	-13.7308
now	-13.7346
watch	-13.7478
am	-13.7652
ugh	-13.7806
su	-13.7892
alo	-13.8757
con	-13.9591
nn	-13.9749
nie	-14.044
ys	-14.1039
fro	-14.1275
▁ap	-14.1985
ebr	-14.2164
bu	-14.325
gal	-14.3444
fin	-14.3877
southeast	-14.4019
ud	-14.4501
wat	-14.5498
ren	-14.5542
massa	-14.5871
appre	-14.6135
foo	-14.6797
blue	-14.6923
abso	-14.6987
penn	-14.7204
ball	-14.7595
q	-14.7595
